{"stoi": {"!": 0, "$": 1, "&": 2, "'": 3, "'T": 4, "'Tis": 5, "'d": 6, "'d,": 7, "'er": 8, "'ll": 9, "'s": 10, "'st": 11, "'t": 12, "'tis": 13, ",": 14, "-": 15, "--": 16, ".": 17, "3": 18, ":": 19, ";": 20, "?": 21, "A": 22, "A:": 23, "AB": 24, "AD": 25, "AN": 26, "AR": 27, "ARD": 28, "AU": 29, "All": 30, "An": 31, "And": 32, "And,": 33, "As": 34, "Ay,": 35, "B": 36, "BA": 37, "BR": 38, "BRUT": 39, "BRUTUS:": 40, "BUC": 41, "BUCKING": 42, "BUCKINGHAM:": 43, "Be": 44, "But": 45, "By": 46, "C": 47, "CA": 48, "CAP": 49, "CAPU": 50, "CAPUL": 51, "CAPULET:": 52, "CL": 53, "CORI": 54, "CORIOL": 55, "CORIOLAN": 56, "CORIOLANUS:": 57, "Citizen": 58, "Citizen:": 59, "Cl": 60, "Come": 61, "Come,": 62, "D": 63, "D:": 64, "DU": 65, "DUK": 66, "DUKE": 67, "Do": 68, "E": 69, "E:": 70, "ED": 71, "EDW": 72, "EDWARD": 73, "EEN": 74, "EL": 75, "ELI": 76, "ELIZ": 77, "ELIZAB": 78, "ELIZABET": 79, "ELIZABETH:": 80, "ELL": 81, "EN": 82, "ENC": 83, "ENCE:": 84, "ENTIO:": 85, "ER": 86, "ER:": 87, "ES": 88, "ES:": 89, "EST": 90, "ET": 91, "ET:": 92, "Ed": 93, "Edward": 94, "F": 95, "First": 96, "For": 97, "From": 98, "G": 99, "GLO": 100, "GLOUC": 101, "GLOUCEST": 102, "GLOUCESTER:": 103, "GR": 104, "GRE": 105, "Go": 106, "God": 107, "Good": 108, "H": 109, "H:": 110, "HA": 111, "HAM": 112, "HAM:": 113, "HEN": 114, "HENR": 115, "HENRY": 116, "Have": 117, "He": 118, "Hen": 119, "Here": 120, "His": 121, "How": 122, "I": 123, "I'll": 124, "I,": 125, "I:": 126, "IAN": 127, "IC": 128, "ICH": 129, "II": 130, "II:": 131, "III:": 132, "IN": 133, "INA:": 134, "INC": 135, "ING": 136, "INIUS:": 137, "IO:": 138, "IS": 139, "ISAB": 140, "ISABELL": 141, "ISABELLA:": 142, "IUS:": 143, "IV": 144, "IV:": 145, "If": 146, "In": 147, "Is": 148, "It": 149, "J": 150, "JU": 151, "JULI": 152, "JULIET:": 153, "K": 154, "K:": 155, "KING": 156, "L": 157, "LAD": 158, "LADY": 159, "LE": 160, "LEONT": 161, "LEONTES:": 162, "LI": 163, "LO": 164, "LO:": 165, "LUC": 166, "LUCIO:": 167, "Let": 168, "Lord": 169, "M": 170, "MAR": 171, "ME": 172, "MEN": 173, "MENEN": 174, "MENENIUS:": 175, "MER": 176, "MI": 177, "Mar": 178, "My": 179, "N": 180, "Nay,": 181, "No": 182, "No,": 183, "Nor": 184, "Not": 185, "Now": 186, "Now,": 187, "Nurse": 188, "O": 189, "O,": 190, "O:": 191, "OF": 192, "OL": 193, "OM": 194, "ON": 195, "ONT": 196, "OR": 197, "ORI": 198, "Of": 199, "Or": 200, "P": 201, "PER": 202, "PET": 203, "PETR": 204, "PETRUCH": 205, "PETRUCHIO:": 206, "Pro": 207, "Q": 208, "QU": 209, "QUEEN": 210, "R": 211, "RAN": 212, "RICH": 213, "RICHARD": 214, "RO": 215, "ROME": 216, "ROMEO:": 217, "Ri": 218, "Rich": 219, "Richard": 220, "Rome": 221, "Romeo": 222, "S": 223, "S:": 224, "SIC": 225, "SICINIUS:": 226, "ST": 227, "Se": 228, "Second": 229, "Ser": 230, "Sha": 231, "Shall": 232, "She": 233, "Sir": 234, "So": 235, "T": 236, "TH": 237, "TI": 238, "TIO:": 239, "Th": 240, "Than": 241, "That": 242, "The": 243, "Then": 244, "There": 245, "They": 246, "This": 247, "Thou": 248, "Thy": 249, "To": 250, "U": 251, "UC": 252, "UCH": 253, "UM": 254, "US:": 255, "UT": 256, "Un": 257, "V": 258, "VINC": 259, "VINCENTIO:": 260, "VOL": 261, "W": 262, "WAR": 263, "WARW": 264, "WARWIC": 265, "WARWICK:": 266, "War": 267, "Warwick": 268, "We": 269, "Well,": 270, "Wh": 271, "What": 272, "What,": 273, "When": 274, "Where": 275, "Which": 276, "Who": 277, "Why,": 278, "Will": 279, "With": 280, "X": 281, "Y": 282, "Y:": 283, "YOR": 284, "YORK:": 285, "Yet": 286, "Yor": 287, "You": 288, "Your": 289, "Z": 290, "a": 291, "a,": 292, "ab": 293, "able": 294, "ac": 295, "acc": 296, "ace": 297, "ach": 298, "ad": 299, "af": 300, "after": 301, "ag": 302, "again": 303, "against": 304, "age": 305, "ain": 306, "ak": 307, "ake": 308, "al": 309, "all": 310, "am": 311, "am,": 312, "an": 313, "ance": 314, "and": 315, "and,": 316, "ang": 317, "ant": 318, "any": 319, "ap": 320, "ar": 321, "ard": 322, "ardon": 323, "are": 324, "arewell": 325, "arm": 326, "art": 327, "as": 328, "ase": 329, "ason": 330, "ass": 331, "ast": 332, "at": 333, "atch": 334, "ate": 335, "ate,": 336, "ath": 337, "ation": 338, "atter": 339, "ave": 340, "away": 341, "ay": 342, "ay,": 343, "b": 344, "ba": 345, "back": 346, "ban": 347, "be": 348, "bear": 349, "been": 350, "before": 351, "beg": 352, "being": 353, "ber": 354, "bes": 355, "best": 356, "bet": 357, "better": 358, "bid": 359, "bl": 360, "ble": 361, "blood": 362, "bo": 363, "both": 364, "br": 365, "bra": 366, "bre": 367, "bring": 368, "bro": 369, "brother": 370, "bu": 371, "but": 372, "by": 373, "c": 374, "ca": 375, "call": 376, "came": 377, "can": 378, "cannot": 379, "car": 380, "cause": 381, "ce": 382, "ce,": 383, "ces": 384, "ch": 385, "cha": 386, "char": 387, "che": 388, "chi": 389, "child": 390, "ci": 391, "cious": 392, "ck": 393, "cl": 394, "co": 395, "com": 396, "come": 397, "come,": 398, "comes": 399, "comm": 400, "comp": 401, "con": 402, "cond": 403, "conf": 404, "could": 405, "coun": 406, "cour": 407, "crown": 408, "ct": 409, "ction": 410, "cut": 411, "d": 412, "d,": 413, "da": 414, "daught": 415, "day": 416, "de": 417, "dead": 418, "dear": 419, "death": 420, "deed": 421, "den": 422, "der": 423, "des": 424, "di": 425, "did": 426, "die": 427, "dis": 428, "do": 429, "done": 430, "doth": 431, "dou": 432, "down": 433, "du": 434, "duke": 435, "dy": 436, "e": 437, "e,": 438, "ear": 439, "ech": 440, "ed": 441, "ed,": 442, "ed.": 443, "ef": 444, "el": 445, "else": 446, "em": 447, "en": 448, "ence": 449, "end": 450, "ene": 451, "ent": 452, "entle": 453, "ep": 454, "er": 455, "er,": 456, "er.": 457, "er:": 458, "ere": 459, "ers": 460, "es": 461, "es,": 462, "es.": 463, "ess": 464, "ess,": 465, "est": 466, "et": 467, "ever": 468, "every": 469, "ex": 470, "ey": 471, "eyes": 472, "f": 473, "fa": 474, "face": 475, "fair": 476, "fall": 477, "far": 478, "father": 479, "fe": 480, "fear": 481, "fellow": 482, "fi": 483, "find": 484, "first": 485, "fl": 486, "fo": 487, "follow": 488, "foo": 489, "for": 490, "fore": 491, "fort": 492, "forth": 493, "fri": 494, "friend": 495, "from": 496, "ft": 497, "ful": 498, "full": 499, "g": 500, "gar": 501, "ge": 502, "gentle": 503, "get": 504, "gh": 505, "ght": 506, "gi": 507, "give": 508, "go": 509, "gone": 510, "good": 511, "gr": 512, "gra": 513, "grace": 514, "great": 515, "gri": 516, "gu": 517, "h": 518, "h,": 519, "ha": 520, "had": 521, "hand": 522, "happ": 523, "hast": 524, "hat": 525, "hath": 526, "have": 527, "he": 528, "hea": 529, "head": 530, "hear": 531, "heard": 532, "heart": 533, "heaven": 534, "help": 535, "hen": 536, "her": 537, "here": 538, "hi": 539, "hich": 540, "high": 541, "him": 542, "him,": 543, "him.": 544, "himself": 545, "his": 546, "hither": 547, "ho": 548, "hold": 549, "home": 550, "honour": 551, "hor": 552, "hour": 553, "house": 554, "how": 555, "hus": 556, "husb": 557, "i": 558, "ic": 559, "ice": 560, "id": 561, "ie": 562, "if": 563, "ig": 564, "ight": 565, "ign": 566, "il": 567, "ill": 568, "im": 569, "in": 570, "in,": 571, "ince": 572, "ind": 573, "ine": 574, "ing": 575, "ing,": 576, "ing.": 577, "ink": 578, "ins": 579, "int": 580, "io": 581, "ion": 582, "ir": 583, "irst": 584, "is": 585, "ise": 586, "ish": 587, "ison": 588, "ister": 589, "it": 590, "it,": 591, "it.": 592, "ite": 593, "ith": 594, "ither": 595, "iti": 596, "itizen": 597, "itor": 598, "ity": 599, "ive": 600, "j": 601, "je": 602, "jo": 603, "joy": 604, "just": 605, "k": 606, "k,": 607, "ke": 608, "keep": 609, "ken": 610, "kes": 611, "kill": 612, "kind": 613, "king": 614, "king,": 615, "know": 616, "l": 617, "la": 618, "lad": 619, "land": 620, "law": 621, "lay": 622, "ld": 623, "le": 624, "le,": 625, "leave": 626, "led": 627, "less": 628, "let": 629, "li": 630, "lie": 631, "lif": 632, "life": 633, "light": 634, "like": 635, "lit": 636, "little": 637, "live": 638, "ll": 639, "ll,": 640, "llow": 641, "lo": 642, "long": 643, "look": 644, "lord": 645, "lord,": 646, "love": 647, "lp": 648, "lt": 649, "ly": 650, "ly,": 651, "ly.": 652, "m": 653, "ma": 654, "mad": 655, "made": 656, "make": 657, "man": 658, "man,": 659, "man:": 660, "many": 661, "mar": 662, "master": 663, "may": 664, "me": 665, "me,": 666, "me.": 667, "me;": 668, "mean": 669, "men": 670, "ment": 671, "mer": 672, "mi": 673, "might": 674, "min": 675, "mind": 676, "mine": 677, "mis": 678, "mo": 679, "mor": 680, "more": 681, "morrow": 682, "most": 683, "mother": 684, "mu": 685, "much": 686, "must": 687, "my": 688, "myself": 689, "n": 690, "na": 691, "name": 692, "nat": 693, "nd": 694, "ne": 695, "need": 696, "ness": 697, "never": 698, "new": 699, "ng": 700, "night": 701, "no": 702, "noble": 703, "nor": 704, "not": 705, "not,": 706, "nothing": 707, "now": 708, "now,": 709, "o": 710, "o'": 711, "o,": 712, "of": 713, "off": 714, "ol": 715, "old": 716, "om": 717, "ome": 718, "on": 719, "on,": 720, "once": 721, "ond": 722, "one": 723, "one,": 724, "ong": 725, "onour": 726, "oo": 727, "ood": 728, "ook": 729, "op": 730, "ople": 731, "or": 732, "ord": 733, "ore": 734, "orn": 735, "ort": 736, "ose": 737, "other": 738, "ou": 739, "oud": 740, "ough": 741, "ought": 742, "oul": 743, "ould": 744, "oun": 745, "ound": 746, "our": 747, "ous": 748, "ouse": 749, "out": 750, "ow": 751, "ower": 752, "own": 753, "p": 754, "pa": 755, "par": 756, "part": 757, "pat": 758, "pe": 759, "people": 760, "per": 761, "pl": 762, "pla": 763, "ple": 764, "please": 765, "po": 766, "poor": 767, "pose": 768, "power": 769, "pp": 770, "pr": 771, "pray": 772, "pre": 773, "pres": 774, "pri": 775, "prince": 776, "pro": 777, "pt": 778, "pur": 779, "put": 780, "q": 781, "qu": 782, "que": 783, "queen": 784, "qui": 785, "r": 786, "ra": 787, "ran": 788, "raw": 789, "re": 790, "read": 791, "reat": 792, "red": 793, "ree": 794, "ren": 795, "rep": 796, "res": 797, "rest": 798, "ret": 799, "ri": 800, "right": 801, "ro": 802, "rom": 803, "row": 804, "rown": 805, "roy": 806, "ru": 807, "ry": 808, "ry,": 809, "s": 810, "s!": 811, "s,": 812, "s.": 813, "s:": 814, "s;": 815, "s?": 816, "sa": 817, "said": 818, "say": 819, "sc": 820, "se": 821, "see": 822, "seem": 823, "sel": 824, "self": 825, "sent": 826, "ser": 827, "set": 828, "sh": 829, "sha": 830, "shall": 831, "she": 832, "shi": 833, "ship": 834, "should": 835, "show": 836, "si": 837, "sir": 838, "sir,": 839, "sle": 840, "so": 841, "so,": 842, "some": 843, "son": 844, "sor": 845, "soul": 846, "sp": 847, "spe": 848, "speak": 849, "ss": 850, "st": 851, "st,": 852, "stand": 853, "stay": 854, "ste": 855, "ster": 856, "still": 857, "su": 858, "sub": 859, "such": 860, "sw": 861, "swe": 862, "sweet": 863, "t": 864, "t,": 865, "ta": 866, "tain": 867, "take": 868, "tal": 869, "te": 870, "tear": 871, "ted": 872, "tell": 873, "tem": 874, "ten": 875, "tend": 876, "tent": 877, "ter": 878, "th": 879, "th,": 880, "than": 881, "thank": 882, "that": 883, "the": 884, "thee": 885, "thee,": 886, "their": 887, "them": 888, "then": 889, "ther": 890, "there": 891, "these": 892, "they": 893, "thine": 894, "thing": 895, "think": 896, "this": 897, "those": 898, "thou": 899, "though": 900, "thought": 901, "thr": 902, "thus": 903, "thy": 904, "ti": 905, "till": 906, "time": 907, "tion": 908, "tle": 909, "to": 910, "to-": 911, "tong": 912, "tongue": 913, "too": 914, "tr": 915, "tra": 916, "tre": 917, "tri": 918, "tru": 919, "true": 920, "ts": 921, "two": 922, "ty": 923, "u": 924, "uck": 925, "ue": 926, "ught": 927, "ul": 928, "ull": 929, "um": 930, "un": 931, "und": 932, "under": 933, "une": 934, "unto": 935, "up": 936, "upon": 937, "ur": 938, "urder": 939, "ure": 940, "urn": 941, "urse": 942, "us": 943, "us,": 944, "use": 945, "ust": 946, "ut": 947, "v": 948, "vant": 949, "ve": 950, "ved": 951, "ven": 952, "ver": 953, "very": 954, "ves": 955, "vi": 956, "ving": 957, "vo": 958, "w": 959, "war": 960, "ward": 961, "was": 962, "way": 963, "we": 964, "wel": 965, "well": 966, "were": 967, "wh": 968, "what": 969, "when": 970, "where": 971, "whi": 972, "which": 973, "who": 974, "wi": 975, "wick": 976, "wife": 977, "will": 978, "with": 979, "wo": 980, "wor": 981, "word": 982, "world": 983, "would": 984, "wr": 985, "x": 986, "y": 987, "y,": 988, "y.": 989, "y:": 990, "year": 991, "yet": 992, "you": 993, "you,": 994, "you.": 995, "young": 996, "your": 997, "z": 998, "zen": 999}, "itos": {"0": "!", "1": "$", "2": "&", "3": "'", "4": "'T", "5": "'Tis", "6": "'d", "7": "'d,", "8": "'er", "9": "'ll", "10": "'s", "11": "'st", "12": "'t", "13": "'tis", "14": ",", "15": "-", "16": "--", "17": ".", "18": "3", "19": ":", "20": ";", "21": "?", "22": "A", "23": "A:", "24": "AB", "25": "AD", "26": "AN", "27": "AR", "28": "ARD", "29": "AU", "30": "All", "31": "An", "32": "And", "33": "And,", "34": "As", "35": "Ay,", "36": "B", "37": "BA", "38": "BR", "39": "BRUT", "40": "BRUTUS:", "41": "BUC", "42": "BUCKING", "43": "BUCKINGHAM:", "44": "Be", "45": "But", "46": "By", "47": "C", "48": "CA", "49": "CAP", "50": "CAPU", "51": "CAPUL", "52": "CAPULET:", "53": "CL", "54": "CORI", "55": "CORIOL", "56": "CORIOLAN", "57": "CORIOLANUS:", "58": "Citizen", "59": "Citizen:", "60": "Cl", "61": "Come", "62": "Come,", "63": "D", "64": "D:", "65": "DU", "66": "DUK", "67": "DUKE", "68": "Do", "69": "E", "70": "E:", "71": "ED", "72": "EDW", "73": "EDWARD", "74": "EEN", "75": "EL", "76": "ELI", "77": "ELIZ", "78": "ELIZAB", "79": "ELIZABET", "80": "ELIZABETH:", "81": "ELL", "82": "EN", "83": "ENC", "84": "ENCE:", "85": "ENTIO:", "86": "ER", "87": "ER:", "88": "ES", "89": "ES:", "90": "EST", "91": "ET", "92": "ET:", "93": "Ed", "94": "Edward", "95": "F", "96": "First", "97": "For", "98": "From", "99": "G", "100": "GLO", "101": "GLOUC", "102": "GLOUCEST", "103": "GLOUCESTER:", "104": "GR", "105": "GRE", "106": "Go", "107": "God", "108": "Good", "109": "H", "110": "H:", "111": "HA", "112": "HAM", "113": "HAM:", "114": "HEN", "115": "HENR", "116": "HENRY", "117": "Have", "118": "He", "119": "Hen", "120": "Here", "121": "His", "122": "How", "123": "I", "124": "I'll", "125": "I,", "126": "I:", "127": "IAN", "128": "IC", "129": "ICH", "130": "II", "131": "II:", "132": "III:", "133": "IN", "134": "INA:", "135": "INC", "136": "ING", "137": "INIUS:", "138": "IO:", "139": "IS", "140": "ISAB", "141": "ISABELL", "142": "ISABELLA:", "143": "IUS:", "144": "IV", "145": "IV:", "146": "If", "147": "In", "148": "Is", "149": "It", "150": "J", "151": "JU", "152": "JULI", "153": "JULIET:", "154": "K", "155": "K:", "156": "KING", "157": "L", "158": "LAD", "159": "LADY", "160": "LE", "161": "LEONT", "162": "LEONTES:", "163": "LI", "164": "LO", "165": "LO:", "166": "LUC", "167": "LUCIO:", "168": "Let", "169": "Lord", "170": "M", "171": "MAR", "172": "ME", "173": "MEN", "174": "MENEN", "175": "MENENIUS:", "176": "MER", "177": "MI", "178": "Mar", "179": "My", "180": "N", "181": "Nay,", "182": "No", "183": "No,", "184": "Nor", "185": "Not", "186": "Now", "187": "Now,", "188": "Nurse", "189": "O", "190": "O,", "191": "O:", "192": "OF", "193": "OL", "194": "OM", "195": "ON", "196": "ONT", "197": "OR", "198": "ORI", "199": "Of", "200": "Or", "201": "P", "202": "PER", "203": "PET", "204": "PETR", "205": "PETRUCH", "206": "PETRUCHIO:", "207": "Pro", "208": "Q", "209": "QU", "210": "QUEEN", "211": "R", "212": "RAN", "213": "RICH", "214": "RICHARD", "215": "RO", "216": "ROME", "217": "ROMEO:", "218": "Ri", "219": "Rich", "220": "Richard", "221": "Rome", "222": "Romeo", "223": "S", "224": "S:", "225": "SIC", "226": "SICINIUS:", "227": "ST", "228": "Se", "229": "Second", "230": "Ser", "231": "Sha", "232": "Shall", "233": "She", "234": "Sir", "235": "So", "236": "T", "237": "TH", "238": "TI", "239": "TIO:", "240": "Th", "241": "Than", "242": "That", "243": "The", "244": "Then", "245": "There", "246": "They", "247": "This", "248": "Thou", "249": "Thy", "250": "To", "251": "U", "252": "UC", "253": "UCH", "254": "UM", "255": "US:", "256": "UT", "257": "Un", "258": "V", "259": "VINC", "260": "VINCENTIO:", "261": "VOL", "262": "W", "263": "WAR", "264": "WARW", "265": "WARWIC", "266": "WARWICK:", "267": "War", "268": "Warwick", "269": "We", "270": "Well,", "271": "Wh", "272": "What", "273": "What,", "274": "When", "275": "Where", "276": "Which", "277": "Who", "278": "Why,", "279": "Will", "280": "With", "281": "X", "282": "Y", "283": "Y:", "284": "YOR", "285": "YORK:", "286": "Yet", "287": "Yor", "288": "You", "289": "Your", "290": "Z", "291": "a", "292": "a,", "293": "ab", "294": "able", "295": "ac", "296": "acc", "297": "ace", "298": "ach", "299": "ad", "300": "af", "301": "after", "302": "ag", "303": "again", "304": "against", "305": "age", "306": "ain", "307": "ak", "308": "ake", "309": "al", "310": "all", "311": "am", "312": "am,", "313": "an", "314": "ance", "315": "and", "316": "and,", "317": "ang", "318": "ant", "319": "any", "320": "ap", "321": "ar", "322": "ard", "323": "ardon", "324": "are", "325": "arewell", "326": "arm", "327": "art", "328": "as", "329": "ase", "330": "ason", "331": "ass", "332": "ast", "333": "at", "334": "atch", "335": "ate", "336": "ate,", "337": "ath", "338": "ation", "339": "atter", "340": "ave", "341": "away", "342": "ay", "343": "ay,", "344": "b", "345": "ba", "346": "back", "347": "ban", "348": "be", "349": "bear", "350": "been", "351": "before", "352": "beg", "353": "being", "354": "ber", "355": "bes", "356": "best", "357": "bet", "358": "better", "359": "bid", "360": "bl", "361": "ble", "362": "blood", "363": "bo", "364": "both", "365": "br", "366": "bra", "367": "bre", "368": "bring", "369": "bro", "370": "brother", "371": "bu", "372": "but", "373": "by", "374": "c", "375": "ca", "376": "call", "377": "came", "378": "can", "379": "cannot", "380": "car", "381": "cause", "382": "ce", "383": "ce,", "384": "ces", "385": "ch", "386": "cha", "387": "char", "388": "che", "389": "chi", "390": "child", "391": "ci", "392": "cious", "393": "ck", "394": "cl", "395": "co", "396": "com", "397": "come", "398": "come,", "399": "comes", "400": "comm", "401": "comp", "402": "con", "403": "cond", "404": "conf", "405": "could", "406": "coun", "407": "cour", "408": "crown", "409": "ct", "410": "ction", "411": "cut", "412": "d", "413": "d,", "414": "da", "415": "daught", "416": "day", "417": "de", "418": "dead", "419": "dear", "420": "death", "421": "deed", "422": "den", "423": "der", "424": "des", "425": "di", "426": "did", "427": "die", "428": "dis", "429": "do", "430": "done", "431": "doth", "432": "dou", "433": "down", "434": "du", "435": "duke", "436": "dy", "437": "e", "438": "e,", "439": "ear", "440": "ech", "441": "ed", "442": "ed,", "443": "ed.", "444": "ef", "445": "el", "446": "else", "447": "em", "448": "en", "449": "ence", "450": "end", "451": "ene", "452": "ent", "453": "entle", "454": "ep", "455": "er", "456": "er,", "457": "er.", "458": "er:", "459": "ere", "460": "ers", "461": "es", "462": "es,", "463": "es.", "464": "ess", "465": "ess,", "466": "est", "467": "et", "468": "ever", "469": "every", "470": "ex", "471": "ey", "472": "eyes", "473": "f", "474": "fa", "475": "face", "476": "fair", "477": "fall", "478": "far", "479": "father", "480": "fe", "481": "fear", "482": "fellow", "483": "fi", "484": "find", "485": "first", "486": "fl", "487": "fo", "488": "follow", "489": "foo", "490": "for", "491": "fore", "492": "fort", "493": "forth", "494": "fri", "495": "friend", "496": "from", "497": "ft", "498": "ful", "499": "full", "500": "g", "501": "gar", "502": "ge", "503": "gentle", "504": "get", "505": "gh", "506": "ght", "507": "gi", "508": "give", "509": "go", "510": "gone", "511": "good", "512": "gr", "513": "gra", "514": "grace", "515": "great", "516": "gri", "517": "gu", "518": "h", "519": "h,", "520": "ha", "521": "had", "522": "hand", "523": "happ", "524": "hast", "525": "hat", "526": "hath", "527": "have", "528": "he", "529": "hea", "530": "head", "531": "hear", "532": "heard", "533": "heart", "534": "heaven", "535": "help", "536": "hen", "537": "her", "538": "here", "539": "hi", "540": "hich", "541": "high", "542": "him", "543": "him,", "544": "him.", "545": "himself", "546": "his", "547": "hither", "548": "ho", "549": "hold", "550": "home", "551": "honour", "552": "hor", "553": "hour", "554": "house", "555": "how", "556": "hus", "557": "husb", "558": "i", "559": "ic", "560": "ice", "561": "id", "562": "ie", "563": "if", "564": "ig", "565": "ight", "566": "ign", "567": "il", "568": "ill", "569": "im", "570": "in", "571": "in,", "572": "ince", "573": "ind", "574": "ine", "575": "ing", "576": "ing,", "577": "ing.", "578": "ink", "579": "ins", "580": "int", "581": "io", "582": "ion", "583": "ir", "584": "irst", "585": "is", "586": "ise", "587": "ish", "588": "ison", "589": "ister", "590": "it", "591": "it,", "592": "it.", "593": "ite", "594": "ith", "595": "ither", "596": "iti", "597": "itizen", "598": "itor", "599": "ity", "600": "ive", "601": "j", "602": "je", "603": "jo", "604": "joy", "605": "just", "606": "k", "607": "k,", "608": "ke", "609": "keep", "610": "ken", "611": "kes", "612": "kill", "613": "kind", "614": "king", "615": "king,", "616": "know", "617": "l", "618": "la", "619": "lad", "620": "land", "621": "law", "622": "lay", "623": "ld", "624": "le", "625": "le,", "626": "leave", "627": "led", "628": "less", "629": "let", "630": "li", "631": "lie", "632": "lif", "633": "life", "634": "light", "635": "like", "636": "lit", "637": "little", "638": "live", "639": "ll", "640": "ll,", "641": "llow", "642": "lo", "643": "long", "644": "look", "645": "lord", "646": "lord,", "647": "love", "648": "lp", "649": "lt", "650": "ly", "651": "ly,", "652": "ly.", "653": "m", "654": "ma", "655": "mad", "656": "made", "657": "make", "658": "man", "659": "man,", "660": "man:", "661": "many", "662": "mar", "663": "master", "664": "may", "665": "me", "666": "me,", "667": "me.", "668": "me;", "669": "mean", "670": "men", "671": "ment", "672": "mer", "673": "mi", "674": "might", "675": "min", "676": "mind", "677": "mine", "678": "mis", "679": "mo", "680": "mor", "681": "more", "682": "morrow", "683": "most", "684": "mother", "685": "mu", "686": "much", "687": "must", "688": "my", "689": "myself", "690": "n", "691": "na", "692": "name", "693": "nat", "694": "nd", "695": "ne", "696": "need", "697": "ness", "698": "never", "699": "new", "700": "ng", "701": "night", "702": "no", "703": "noble", "704": "nor", "705": "not", "706": "not,", "707": "nothing", "708": "now", "709": "now,", "710": "o", "711": "o'", "712": "o,", "713": "of", "714": "off", "715": "ol", "716": "old", "717": "om", "718": "ome", "719": "on", "720": "on,", "721": "once", "722": "ond", "723": "one", "724": "one,", "725": "ong", "726": "onour", "727": "oo", "728": "ood", "729": "ook", "730": "op", "731": "ople", "732": "or", "733": "ord", "734": "ore", "735": "orn", "736": "ort", "737": "ose", "738": "other", "739": "ou", "740": "oud", "741": "ough", "742": "ought", "743": "oul", "744": "ould", "745": "oun", "746": "ound", "747": "our", "748": "ous", "749": "ouse", "750": "out", "751": "ow", "752": "ower", "753": "own", "754": "p", "755": "pa", "756": "par", "757": "part", "758": "pat", "759": "pe", "760": "people", "761": "per", "762": "pl", "763": "pla", "764": "ple", "765": "please", "766": "po", "767": "poor", "768": "pose", "769": "power", "770": "pp", "771": "pr", "772": "pray", "773": "pre", "774": "pres", "775": "pri", "776": "prince", "777": "pro", "778": "pt", "779": "pur", "780": "put", "781": "q", "782": "qu", "783": "que", "784": "queen", "785": "qui", "786": "r", "787": "ra", "788": "ran", "789": "raw", "790": "re", "791": "read", "792": "reat", "793": "red", "794": "ree", "795": "ren", "796": "rep", "797": "res", "798": "rest", "799": "ret", "800": "ri", "801": "right", "802": "ro", "803": "rom", "804": "row", "805": "rown", "806": "roy", "807": "ru", "808": "ry", "809": "ry,", "810": "s", "811": "s!", "812": "s,", "813": "s.", "814": "s:", "815": "s;", "816": "s?", "817": "sa", "818": "said", "819": "say", "820": "sc", "821": "se", "822": "see", "823": "seem", "824": "sel", "825": "self", "826": "sent", "827": "ser", "828": "set", "829": "sh", "830": "sha", "831": "shall", "832": "she", "833": "shi", "834": "ship", "835": "should", "836": "show", "837": "si", "838": "sir", "839": "sir,", "840": "sle", "841": "so", "842": "so,", "843": "some", "844": "son", "845": "sor", "846": "soul", "847": "sp", "848": "spe", "849": "speak", "850": "ss", "851": "st", "852": "st,", "853": "stand", "854": "stay", "855": "ste", "856": "ster", "857": "still", "858": "su", "859": "sub", "860": "such", "861": "sw", "862": "swe", "863": "sweet", "864": "t", "865": "t,", "866": "ta", "867": "tain", "868": "take", "869": "tal", "870": "te", "871": "tear", "872": "ted", "873": "tell", "874": "tem", "875": "ten", "876": "tend", "877": "tent", "878": "ter", "879": "th", "880": "th,", "881": "than", "882": "thank", "883": "that", "884": "the", "885": "thee", "886": "thee,", "887": "their", "888": "them", "889": "then", "890": "ther", "891": "there", "892": "these", "893": "they", "894": "thine", "895": "thing", "896": "think", "897": "this", "898": "those", "899": "thou", "900": "though", "901": "thought", "902": "thr", "903": "thus", "904": "thy", "905": "ti", "906": "till", "907": "time", "908": "tion", "909": "tle", "910": "to", "911": "to-", "912": "tong", "913": "tongue", "914": "too", "915": "tr", "916": "tra", "917": "tre", "918": "tri", "919": "tru", "920": "true", "921": "ts", "922": "two", "923": "ty", "924": "u", "925": "uck", "926": "ue", "927": "ught", "928": "ul", "929": "ull", "930": "um", "931": "un", "932": "und", "933": "under", "934": "une", "935": "unto", "936": "up", "937": "upon", "938": "ur", "939": "urder", "940": "ure", "941": "urn", "942": "urse", "943": "us", "944": "us,", "945": "use", "946": "ust", "947": "ut", "948": "v", "949": "vant", "950": "ve", "951": "ved", "952": "ven", "953": "ver", "954": "very", "955": "ves", "956": "vi", "957": "ving", "958": "vo", "959": "w", "960": "war", "961": "ward", "962": "was", "963": "way", "964": "we", "965": "wel", "966": "well", "967": "were", "968": "wh", "969": "what", "970": "when", "971": "where", "972": "whi", "973": "which", "974": "who", "975": "wi", "976": "wick", "977": "wife", "978": "will", "979": "with", "980": "wo", "981": "wor", "982": "word", "983": "world", "984": "would", "985": "wr", "986": "x", "987": "y", "988": "y,", "989": "y.", "990": "y:", "991": "year", "992": "yet", "993": "you", "994": "you,", "995": "you.", "996": "young", "997": "your", "998": "z", "999": "zen"}, "merges": {"('t', 'h')": "th", "('o', 'u')": "ou", "('e', 'r')": "er", "('i', 'n')": "in", "('a', 'n')": "an", "('th', 'e')": "the", "('o', 'r')": "or", "('i', 's')": "is", "('e', 'n')": "en", "('a', 'r')": "ar", "('a', 't')": "at", "('o', 'n')": "on", "('s', 't')": "st", "('l', 'l')": "ll", "('m', 'e')": "me", "('t', 'o')": "to", "('an', 'd')": "and", "('h', 'e')": "he", "('y', 'ou')": "you", "('e', 's')": "es", "('n', 'o')": "no", "('s', 'e')": "se", "('h', 'a')": "ha", "('r', 'e')": "re", "('o', 'f')": "of", "('v', 'e')": "ve", "('i', 't')": "it", "('in', 'g')": "ing", "('b', 'e')": "be", "('l', 'e')": "le", "('w', 'i')": "wi", "('m', 'y')": "my", "('h', 'i')": "hi", "('o', 'w')": "ow", "('c', 'e')": "ce", "('f', 'or')": "for", "('a', 'y')": "ay", "('a', 's')": "as", "('c', 'h')": "ch", "('n', 'd')": "nd", "('er', 'e')": "ere", "('l', 'd')": "ld", "('i', 'r')": "ir", "('e', 'd')": "ed", "('u', 't')": "ut", "('r', 'o')": "ro", "('no', 't')": "not", "('l', 'i')": "li", "('d', 'e')": "de", "('w', 'e')": "we", "('h', 'at')": "hat", "('th', 'at')": "that", "('g', 'h')": "gh", "('A', 'nd')": "And", "('k', 'e')": "ke", "(\"'\", 's')": "'s", "('o', 'o')": "oo", "('ou', 'r')": "our", "('wi', 'th')": "with", "('s', ',')": "s,", "('o', 'me')": "ome", "('en', 't')": "ent", "('h', 'is')": "his", "('r', 'i')": "ri", "('you', 'r')": "your", "('th', 'ou')": "thou", "('th', 'er')": "ther", "('O', ':')": "O:", "('a', 'd')": "ad", "('a', 'l')": "al", "('e', 't')": "et", "(\"'\", 'd')": "'d", "('e', ',')": "e,", "('a', 'll')": "all", "('gh', 't')": "ght", "('E', 'N')": "EN", "('u', 'r')": "ur", "('ha', 've')": "have", "('hi', 'm')": "him", "('I', 'N')": "IN", "('l', 'y')": "ly", "('s', 'o')": "so", "('r', 'a')": "ra", "('th', 'is')": "this", "('S', ':')": "S:", "('or', 'd')": "ord", "('d', 'o')": "do", "('u', 's')": "us", "('u', 'n')": "un", "('h', 'o')": "ho", "('m', 'a')": "ma", "('A', 'R')": "AR", "('p', 'e')": "pe", "('ou', 'ld')": "ould", "('l', 'o')": "lo", "('h', 'ere')": "here", "('oo', 'd')": "ood", "('i', 'd')": "id", "('th', 'y')": "thy", "('v', 'er')": "ver", "('f', 'a')": "fa", "('ar', 'e')": "are", "('c', 'k')": "ck", "('y', ',')": "y,", "('I', 'O:')": "IO:", "('m', 'an')": "man", "('t', 'i')": "ti", "('no', 'w')": "now", "('T', 'he')": "The", "('a', 'm')": "am", "('s', 'ha')": "sha", "('wi', 'll')": "will", "('es', 's')": "ess", "('n', 'e')": "ne", "('f', 'e')": "fe", "('a', 'in')": "ain", "('b', 'ut')": "but", "('s', 'u')": "su", "('ar', 'd')": "ard", "('h', 'er')": "her", "('on', 'e')": "one", "('U', 'S:')": "US:", "('t', 'er')": "ter", "('c', 'on')": "con", "('g', 'e')": "ge", "('p', 'r')": "pr", "('T', 'h')": "Th", "('T', 'o')": "To", "('en', 'd')": "end", "('o', 'm')": "om", "('r', 'u')": "ru", "('l', 'a')": "la", "('b', 'y')": "by", "('sha', 'll')": "shall", "('ar', 't')": "art", "('m', 'or')": "mor", "('U', 'C')": "UC", "('s', 'h')": "sh", "('c', 'ome')": "come", "('p', 'o')": "po", "('IN', 'G')": "ING", "('u', 'p')": "up", "('ro', 'm')": "rom", "('ow', 'n')": "own", "('A', 'N')": "AN", "('t', 'a')": "ta", "('T', 'hat')": "That", "('w', 'hat')": "what", "('E', 'R')": "ER", "('O', 'R')": "OR", "('m', 'o')": "mo", "('se', 'l')": "sel", "('E', 'T')": "ET", "('i', 'f')": "if", "('ou', 's')": "ous", "('t', 'e')": "te", "('g', 'o')": "go", "('g', 'ood')": "good", "('i', 'll')": "ill", "('m', 'u')": "mu", "('q', 'u')": "qu", "('B', 'ut')": "But", "('a', 'th')": "ath", "('h', 'en')": "hen", "('b', 'le')": "ble", "('i', 'ght')": "ight", "('i', 'on')": "ion", "('l', 'ord')": "lord", "('the', 'e')": "thee", "(\"'\", 't')": "'t", "('hi', 'ch')": "hich", "('k', 'ing')": "king", "(\"'\", 'll')": "'ll", "('A', ':')": "A:", "('W', 'hat')": "What", "('w', 'as')": "was", "('b', 'o')": "bo", "('an', 't')": "ant", "('i', 'l')": "il", "('v', 'en')": "ven", "('K', 'ING')": "KING", "('s', 'he')": "she", "('c', 'a')": "ca", "('f', 'rom')": "from", "('in', 'e')": "ine", "('on', 'g')": "ong", "('b', 'l')": "bl", "('F', 'or')": "For", "('we', 'll')": "well", "('u', 'l')": "ul", "('the', 'm')": "them", "('s', 'a')": "sa", "('I', 'C')": "IC", "('a', 'k')": "ak", "('s', 'ir')": "sir", "('sel', 'f')": "self", "('in', 'd')": "ind", "('O', 'L')": "OL", "('w', 'ould')": "would", "('s', '.')": "s.", "('th', 'ere')": "there", "('w', 'or')": "wor", "('c', 't')": "ct", "('ay', ',')": "ay,", "('lo', 've')": "love", "('k', 'now')": "know", "('p', 'er')": "per", "('c', 'an')": "can", "('ou', 't')": "out", "('i', 've')": "ive", "('E', 'L')": "EL", "('c', 'om')": "com", "('mor', 'e')": "more", "('the', 'n')": "then", "('a', 'g')": "ag", "('le', 't')": "let", "('es', ',')": "es,", "('I', 'US:')": "IUS:", "('AR', 'D')": "ARD", "('the', 'ir')": "their", "('d', 'i')": "di", "('M', 'y')": "My", "('th', 'an')": "than", "('c', 'i')": "ci", "('-', '-')": "--", "('ce', ',')": "ce,", "('the', 'y')": "they", "('S', 'T')": "ST", "('se', 'e')": "see", "('o', ',')": "o,", "('I', \"'ll\")": "I'll", "('E', ':')": "E:", "('r', 'y')": "ry", "('e', 'p')": "ep", "('li', 'ke')": "like", "('e', 'ar')": "ear", "('s', 'pe')": "spe", "('O', 'N')": "ON", "('e', 'st')": "est", "('me', ',')": "me,", "('w', 'ere')": "were", "('b', 'ro')": "bro", "('p', 'ro')": "pro", "('a', 'st')": "ast", "('A', 's')": "As", "('s', 'ay')": "say", "('is', 'h')": "ish", "('W', 'e')": "We", "('in', 'k')": "ink", "('m', 'ay')": "may", "('ha', 'th')": "hath", "('I', 'I')": "II", "('ir', 'st')": "irst", "('ma', 'ke')": "make", "('p', 'le')": "ple", "('u', 're')": "ure", "('o', 'l')": "ol", "('Y', 'ou')": "You", "('r', 'ow')": "row", "('w', 'ho')": "who", "('th', 'ing')": "thing", "('H', 'e')": "He", "('t', 'ru')": "tru", "('for', 'e')": "fore", "('mu', 'st')": "must", "('a', 'p')": "ap", "('at', 'e')": "ate", "('g', 'ra')": "gra", "('ou', 'nd')": "ound", "('i', 'th')": "ith", "('you', ',')": "you,", "('G', 'o')": "Go", "('a', 've')": "ave", "('s', 'ome')": "some", "('oo', 'k')": "ook", "('sh', 'ould')": "should", "('fa', 'ther')": "father", "('f', 'i')": "fi", "('R', 'O')": "RO", "('ti', 'me')": "time", "('T', 'IO:')": "TIO:", "('u', 'se')": "use", "('d', ',')": "d,", "('up', 'on')": "upon", "('w', 'ay')": "way", "('en', 'ce')": "ence", "('v', 'es')": "ves", "('s', 'on')": "son", "('d', 'id')": "did", "('ET', ':')": "ET:", "('er', ',')": "er,", "('A', 'U')": "AU", "('ha', 'd')": "had", "('i', 'g')": "ig", "('re', 'at')": "reat", "('w', 'ard')": "ward", "('d', 'is')": "dis", "('h', 'ow')": "how", "('w', 'hich')": "which", "('de', 'ath')": "death", "('ou', 'n')": "oun", "('w', 'ord')": "word", "('f', 'ri')": "fri", "('e', 'l')": "el", "('w', 'o')": "wo", "('I', 'f')": "If", "('s', 'p')": "sp", "('w', 'hen')": "when", "('to', 'o')": "too", "('K', ':')": "K:", "('m', 'en')": "men", "('spe', 'ak')": "speak", "('ent', 'le')": "entle", "('I', 'n')": "In", "('C', 'A')": "CA", "('ag', 'ain')": "again", "('he', 'art')": "heart", "('IC', 'H')": "ICH", "('R', 'ICH')": "RICH", "('v', 'i')": "vi", "('f', 'ul')": "ful", "('t', ',')": "t,", "('D', 'U')": "DU", "('DU', 'K')": "DUK", "('h', 'and')": "hand", "('er', 's')": "ers", "('DUK', 'E')": "DUKE", "('y', 'et')": "yet", "('o', 'ld')": "old", "('y', '.')": "y.", "('m', 'ar')": "mar", "('Th', 'ou')": "Thou", "('u', 'm')": "um", "('th', 'ink')": "think", "('RICH', 'ARD')": "RICHARD", "('e', 'ver')": "ever", "('EN', 'TIO:')": "ENTIO:", "('p', 'l')": "pl", "('r', 'an')": "ran", "('ta', 'ke')": "take", "('ER', ':')": "ER:", "('W', 'hich')": "Which", "('s', 'i')": "si", "('s', 'we')": "swe", "('W', 'h')": "Wh", "('d', 'ay')": "day", "('a', 'c')": "ac", "('Y', ':')": "Y:", "('O', ',')": "O,", "('he', 'ar')": "hear", "('B', 'e')": "Be", "('W', 'ith')": "With", "('IN', 'C')": "INC", "('ig', 'n')": "ign", "('s', ':')": "s:", "('sir', ',')": "sir,", "('g', 'ive')": "give", "('O', 'f')": "Of", "('n', 'a')": "na", "('N', 'o')": "No", "('g', 'u')": "gu", "('su', 'ch')": "such", "('F', 'irst')": "First", "('l', 'and')": "land", "('mo', 'st')": "most", "('bl', 'ood')": "blood", "('A', 'B')": "AB", "('e', 'x')": "ex", "('bro', 'ther')": "brother", "('d', 'es')": "des", "('the', 'se')": "these", "('te', 'll')": "tell", "('he', 'a')": "hea", "('m', 'ent')": "ment", "('b', 'a')": "ba", "('m', 'ine')": "mine", "('e', 'y')": "ey", "('on', 'our')": "onour", "('b', 're')": "bre", "('o', 'ther')": "other", "('w', 'here')": "where", "('L', 'O')": "LO", "('I', ':')": "I:", "('ll', 'ow')": "llow", "('H', 'ow')": "How", "('C', 'ome')": "Come", "('c', 'oun')": "coun", "('T', 'his')": "This", "('E', 'ST')": "EST", "('l', 'ook')": "look", "('ne', 'w')": "new", "('s', ';')": "s;", "('ed', ',')": "ed,", "('UC', 'H')": "UCH", "('fri', 'end')": "friend", "('W', 'ho')": "Who", "('ou', 'l')": "oul", "('g', 'entle')": "gentle", "('m', 'is')": "mis", "('w', 'ar')": "war", "('u', 'ght')": "ught", "('v', 'o')": "vo", "('G', 'LO')": "GLO", "('GLO', 'UC')": "GLOUC", "('GLOUC', 'EST')": "GLOUCEST", "('GLOUCEST', 'ER:')": "GLOUCESTER:", "('c', 'hi')": "chi", "('it', 'y')": "ity", "('i', 'm')": "im", "('a', 'f')": "af", "('v', 'ing')": "ving", "('r', 'own')": "rown", "('ha', 'st')": "hast", "('E', 'EN')": "EEN", "('a', 'b')": "ab", "('L', 'ord')": "Lord", "('in', 'ce')": "ince", "('L', 'I')": "LI", "('Go', 'd')": "God", "('ur', 'se')": "urse", "('st', 'er')": "ster", "('d', 'u')": "du", "('R', 'ome')": "Rome", "('n', 'ight')": "night", "('of', 'f')": "off", "('l', 'ess')": "less", "('fa', 'ir')": "fair", "('ma', 'de')": "made", "('an', 'g')": "ang", "('or', 't')": "ort", "(\"'\", 'st')": "'st", "('Q', 'U')": "QU", "('QU', 'EEN')": "QUEEN", "('V', 'INC')": "VINC", "('VINC', 'ENTIO:')": "VINCENTIO:", "('h', 'onour')": "honour", "('an', 'y')": "any", "('M', 'ar')": "Mar", "('S', 'e')": "Se", "('ti', 'on')": "tion", "('mu', 'ch')": "much", "('O', 'F')": "OF", "('n', 'ess')": "ness", "('an', 'ce')": "ance", "('er', ':')": "er:", "('W', 'here')": "Where", "('ur', 'n')": "urn", "('the', 'e,')": "thee,", "('lord', ',')": "lord,", "('is', 'e')": "ise", "('m', 'i')": "mi", "('S', 'o')": "So", "('I', 's')": "Is", "('p', 're')": "pre", "('st', 'and')": "stand", "('e', 'f')": "ef", "('b', 'r')": "br", "('fe', 'ar')": "fear", "('H', 'EN')": "HEN", "(\"'t\", 'is')": "'tis", "('N', 'ow')": "Now", "('r', 'es')": "res", "('c', 'he')": "che", "('t', 'le')": "tle", "('HEN', 'R')": "HENR", "('HENR', 'Y')": "HENRY", "('on', 'd')": "ond", "('g', 'reat')": "great", "('l', 't')": "lt", "('n', 'g')": "ng", "('E', 'S')": "ES", "('u', 'st')": "ust", "('p', 'art')": "part", "('it', ',')": "it,", "('ne', 'ver')": "never", "('li', 'e')": "lie", "('OR', 'I')": "ORI", "('p', 't')": "pt", "('th', ',')": "th,", "('Y', 'our')": "Your", "('li', 've')": "live", "('s', 'c')": "sc", "('ar', 'm')": "arm", "('con', 'd')": "cond", "('I', 't')": "It", "('j', 'o')": "jo", "('E', 'S:')": "ES:", "('s', 'er')": "ser", "('c', 'all')": "call", "('o', \"'\")": "o'", "('re', 'ad')": "read", "('f', 'o')": "fo", "('he', 'ad')": "head", "('Y', 'OR')": "YOR", "('YOR', 'K:')": "YORK:", "('be', 'ar')": "bear", "('it', 'i')": "iti", "('at', 'ion')": "ation", "('O', 'r')": "Or", "('be', 't')": "bet", "('IN', 'IUS:')": "INIUS:", "('can', 'not')": "cannot", "('p', 'a')": "pa", "('hea', 'ven')": "heaven", "('b', 'er')": "ber", "('a', 'se')": "ase", "('in', 't')": "int", "('no', 'ble')": "noble", "('P', 'ET')": "PET", "('f', 'l')": "fl", "('u', 'nd')": "und", "('u', 'e')": "ue", "('be', 'en')": "been", "('swe', 'et')": "sweet", "('ver', 'y')": "very", "('it', '.')": "it.", "(\"'\", 'T')": "'T", "('A', 'n')": "An", "('E', 'D')": "ED", "('ED', 'W')": "EDW", "('EDW', 'ARD')": "EDWARD", "('Wh', 'y,')": "Why,", "('G', 'R')": "GR", "('for', 't')": "fort", "('qu', 'e')": "que", "('T', 'H')": "TH", "('re', 'e')": "ree", "('ou', 'gh')": "ough", "('m', 'er')": "mer", "('n', 'or')": "nor", "('U', 'M')": "UM", "('M', 'I')": "MI", "('M', 'EN')": "MEN", "('p', 'p')": "pp", "('do', 'th')": "doth", "('L', 'E')": "LE", "('L', 'UC')": "LUC", "('d', 'a')": "da", "('ou', 'se')": "ouse", "('l', 'ad')": "lad", "('me', 'an')": "mean", "('T', 'here')": "There", "('i', 'c')": "ic", "('ing', ',')": "ing,", "('I', 'S')": "IS", "('him', ',')": "him,", "('com', 'm')": "comm", "('man', ':')": "man:", "('EL', 'L')": "ELL", "('re', 'st')": "rest", "('W', 'hen')": "When", "('t', 'y')": "ty", "('on', ',')": "on,", "('na', 'me')": "name", "('a', 'ge')": "age", "('E', 'd')": "Ed", "('li', 'fe')": "life", "('z', 'en')": "zen", "('M', 'E')": "ME", "('c', 'o')": "co", "('s', 'oul')": "soul", "('w', 'r')": "wr", "('Ed', 'ward')": "Edward", "('RO', 'ME')": "ROME", "('ROME', 'O:')": "ROMEO:", "('MEN', 'EN')": "MENEN", "('MENEN', 'IUS:')": "MENENIUS:", "('wor', 'ld')": "world", "('B', 'y')": "By", "('t', 'r')": "tr", "('re', 'd')": "red", "('que', 'en')": "queen", "('R', 'i')": "Ri", "('s', '?')": "s?", "('L', 'et')": "Let", "('H', 'ere')": "Here", "('Th', 'en')": "Then", "('or', 'n')": "orn", "('p', 'ri')": "pri", "('d', 'own')": "down", "('tru', 'e')": "true", "('de', 'ad')": "dead", "('PET', 'R')": "PETR", "('PETR', 'UCH')": "PETRUCH", "('PETRUCH', 'IO:')": "PETRUCHIO:", "(\"'d\", ',')": "'d,", "('pr', 'es')": "pres", "('ow', 'er')": "ower", "('O', 'M')": "OM", "('pr', 'ay')": "pray", "('l', 'ong')": "long", "('as', 's')": "ass", "('him', '.')": "him.", "('A', 'y,')": "Ay,", "('a', 'ke')": "ake", "('be', 'fore')": "before", "('Th', 'an')": "Than", "('o', 'p')": "op", "('g', 'r')": "gr", "('wi', 'ck')": "wick", "('i', 'e')": "ie", "('mo', 'ther')": "mother", "('Come', ',')": "Come,", "('le', 'ave')": "leave", "('ho', 'ld')": "hold", "('my', 'self')": "myself", "('u', 's,')": "us,", "('e', 'm')": "em", "('M', 'AR')": "MAR", "('C', 'l')": "Cl", "('H', 'A')": "HA", "('ON', 'T')": "ONT", "('you', '.')": "you.", "('c', 'our')": "cour", "('s', '!')": "s!", "('ca', 'use')": "cause", "('h', 'ouse')": "house", "('u', 'll')": "ull", "('p', 'ut')": "put", "('me', '.')": "me.", "('re', 't')": "ret", "('r', 'en')": "ren", "('C', 'ORI')": "CORI", "('CORI', 'OL')": "CORIOL", "('CORIOL', 'AN')": "CORIOLAN", "('Se', 'cond')": "Second", "('be', 'ing')": "being", "('t', 'ri')": "tri", "('N', 'or')": "Nor", "('on', 'e,')": "one,", "('CORIOLAN', 'US:')": "CORIOLANUS:", "('w', 'hi')": "whi", "('thou', 'ght')": "thought", "('gra', 'ce')": "grace", "('Ri', 'ch')": "Rich", "('B', 'A')": "BA", "('chi', 'ld')": "child", "('po', 'or')": "poor", "('li', 'f')": "lif", "('bo', 'th')": "both", "('iti', 'zen')": "itizen", "('ve', 'd')": "ved", "('it', 'e')": "ite", "('se', 't')": "set", "('S', 'he')": "She", "('d', 'er')": "der", "('w', 'h')": "wh", "('or', 'e')": "ore", "('th', 'us')": "thus", "('s', 'w')": "sw", "('da', 'ught')": "daught", "('f', 'oo')": "foo", "('t', 'ra')": "tra", "('IN', 'A:')": "INA:", "('c', 'l')": "cl", "('ri', 'ght')": "right", "('I', 'V')": "IV", "('D', ':')": "D:", "('be', 'g')": "beg", "('II', 'I:')": "III:", "('m', 'ight')": "might", "('S', 'ir')": "Sir", "('D', 'o')": "Do", "('d', 'one')": "done", "('at', 'ter')": "atter", "('c', 'rown')": "crown", "('p', 'la')": "pla", "('at', 'ch')": "atch", "('li', 'ght')": "light", "('t', 'en')": "ten", "('k', ',')": "k,", "('s', 'hi')": "shi", "('b', 'id')": "bid", "('s', 's')": "ss", "('W', 'ar')": "War", "('War', 'wick')": "Warwick", "('ly', ',')": "ly,", "('g', 'ri')": "gri", "('a', 'ch')": "ach", "('come', 's')": "comes", "('H', 'is')": "His", "('man', 'y')": "many", "('a', ',')": "a,", "('not', ',')": "not,", "('es', '.')": "es.", "('l', 'it')": "lit", "('ll', ',')": "ll,", "(\"'T\", 'is')": "'Tis", "('A', 'D')": "AD", "('po', 'se')": "pose", "('IS', 'AB')": "ISAB", "('ISAB', 'ELL')": "ISABELL", "('ISABELL', 'A:')": "ISABELLA:", "('st', ',')": "st,", "('no', 'thing')": "nothing", "('t', 'al')": "tal", "('p', 'ar')": "par", "('k', 'ind')": "kind", "('t', 'ong')": "tong", "('b', 'ra')": "bra", "('ed', '.')": "ed.", "('R', 'AN')": "RAN", "('And', ',')": "And,", "('bet', 'ter')": "better", "('m', 'ad')": "mad", "('a', 'way')": "away", "('o', 'se')": "ose", "('J', 'U')": "JU", "('JU', 'LI')": "JULI", "('JULI', 'ET:')": "JULIET:", "('LE', 'ONT')": "LEONT", "('LEONT', 'ES:')": "LEONTES:", "('ci', 'ous')": "cious", "('thou', 'gh')": "though", "('le', 'd')": "led", "('u', 'ck')": "uck", "('a', 'ble')": "able", "('L', 'AD')": "LAD", "('LAD', 'Y')": "LADY", "('V', 'OL')": "VOL", "('b', 'an')": "ban", "('EN', 'C')": "ENC", "('ENC', 'E:')": "ENCE:", "('ti', 'll')": "till", "('st', 'ay')": "stay", "('sh', 'ow')": "show", "('t', 'end')": "tend", "('i', 'ther')": "ither", "('B', 'R')": "BR", "('C', 'itizen')": "Citizen", "('again', 'st')": "against", "('le', ',')": "le,", "('s', 'ent')": "sent", "('i', 'ce')": "ice", "('S', 'er')": "Ser", "('N', 'ay,')": "Nay,", "('and', ',')": "and,", "('er', '.')": "er.", "('now', ',')": "now,", "('th', 'ose')": "those", "('P', 'ro')": "Pro", "('f', 't')": "ft", "('s', 'le')": "sle", "('lit', 'tle')": "little", "('man', ',')": "man,", "('What', ',')": "What,", "('S', 'IC')": "SIC", "('SIC', 'INIUS:')": "SICINIUS:", "('h', 'our')": "hour", "('f', 'ar')": "far", "('di', 'e')": "die", "('t', 'ent')": "tent", "('l', 'p')": "lp", "('a', 'ce')": "ace", "(\"'\", 'er')": "'er", "('c', 'tion')": "ction", "('S', 'ha')": "Sha", "('t', 're')": "tre", "('h', ',')": "h,", "('de', 'ar')": "dear", "('p', 'ur')": "pur", "('U', 'n')": "Un", "('ke', 'ep')": "keep", "('N', 'o,')": "No,", "('te', 'ar')": "tear", "('ur', 'der')": "urder", "('ch', 'ar')": "char", "('be', 'st')": "best", "('t', 'ain')": "tain", "('st', 'ill')": "still", "('la', 'w')": "law", "('him', 'self')": "himself", "('ou', 'd')": "oud", "('No', 't')": "Not", "('d', 'en')": "den", "('r', 'y,')": "ry,", "('ba', 'ck')": "back", "('i', 'o')": "io", "('f', 'ull')": "full", "('Th', 'y')": "Thy", "('LUC', 'IO:')": "LUCIO:", "('k', 'es')": "kes", "('un', 'to')": "unto", "('su', 'b')": "sub", "('g', 'ar')": "gar", "('T', 'I')": "TI", "('to', '-')": "to-", "('Rich', 'ard')": "Richard", "('IV', ':')": "IV:", "('t', 'ed')": "ted", "('H', 'ave')": "Have", "('e', 'ch')": "ech", "('es', 's,')": "ess,", "('than', 'k')": "thank", "('ro', 'y')": "roy", "('L', 'O:')": "LO:", "('f', 'irst')": "first", "('W', 'ill')": "Will", "('el', 'se')": "else", "('t', 's')": "ts", "('wi', 'fe')": "wife", "('c', 'ould')": "could", "('hi', 'gh')": "high", "('b', 'es')": "bes", "('ey', 'es')": "eyes", "('so', ',')": "so,", "('is', 'on')": "ison", "('s', 'or')": "sor", "('Y', 'or')": "Yor", "('du', 'ke')": "duke", "('ou', 'ght')": "ought", "('h', 'us')": "hus", "('con', 'f')": "conf", "('H', 'en')": "Hen", "('t', 'wo')": "two", "('in', ',')": "in,", "('c', 'ut')": "cut", "('H', ':')": "H:", "('n', 'at')": "nat", "('d', 'y')": "dy", "('f', 'ind')": "find", "('ing', '.')": "ing.", "('come', ',')": "come,", "('you', 'ng')": "young", "('EL', 'I')": "ELI", "('ELI', 'Z')": "ELIZ", "('ELIZ', 'AB')": "ELIZAB", "('ELIZAB', 'ET')": "ELIZABET", "('ELIZABET', 'H:')": "ELIZABETH:", "('at', 'e,')": "ate,", "('c', 'ha')": "cha", "('h', 'or')": "hor", "('br', 'ing')": "bring", "('un', 'e')": "une", "('G', 'ood')": "Good", "('o', 'ple')": "ople", "('j', 'e')": "je", "('m', 'in')": "min", "('j', 'ust')": "just", "('m', 'ind')": "mind", "('g', 'et')": "get", "('h', 'ome')": "home", "('qu', 'i')": "qui", "('GR', 'E')": "GRE", "('I', 'AN')": "IAN", "('pe', 'ople')": "people", "('it', 'or')": "itor", "('Y', 'et')": "Yet", "('hus', 'b')": "husb", "('und', 'er')": "under", "('see', 'm')": "seem", "('are', 'well')": "arewell", "('I', ',')": "I,", "('as', 'on')": "ason", "('C', 'L')": "CL", "('en', 'e')": "ene", "('st', 'e')": "ste", "('com', 'p')": "comp", "('for', 'th')": "forth", "('af', 'ter')": "after", "('ha', 'pp')": "happ", "('M', 'ER')": "MER", "('P', 'ER')": "PER", "('A', 'll')": "All", "('ne', 'ed')": "need", "('in', 's')": "ins", "('shi', 'p')": "ship", "('jo', 'y')": "joy", "('g', 'i')": "gi", "('f', 'all')": "fall", "('Now', ',')": "Now,", "('W', 'AR')": "WAR", "('WAR', 'W')": "WARW", "('WARW', 'IC')": "WARWIC", "('WARWIC', 'K:')": "WARWICK:", "('Citizen', ':')": "Citizen:", "('ma', 'ster')": "master", "('is', 'ter')": "ister", "('fe', 'llow')": "fellow", "('fa', 'ce')": "face", "('fo', 'llow')": "follow", "('U', 'T')": "UT", "('y', ':')": "y:", "('we', 'l')": "wel", "('b', 'u')": "bu", "('v', 'ant')": "vant", "('king', ',')": "king,", "('II', ':')": "II:", "('re', 'p')": "rep", "('de', 'ed')": "deed", "('c', 'ar')": "car", "('l', 'ay')": "lay", "('th', 'ine')": "thine", "('ard', 'on')": "ardon", "('N', 'urse')": "Nurse", "('ple', 'ase')": "please", "('ca', 'me')": "came", "('HA', 'M')": "HAM", "('HAM', ':')": "HAM:", "('The', 'y')": "They", "('hi', 'ther')": "hither", "('sa', 'id')": "said", "('Sha', 'll')": "Shall", "('pr', 'ince')": "prince", "('mor', 'row')": "morrow", "('CA', 'P')": "CAP", "('CAP', 'U')": "CAPU", "('CAPU', 'L')": "CAPUL", "('CAPUL', 'ET:')": "CAPULET:", "('ever', 'y')": "every", "('g', 'one')": "gone", "('d', 'ou')": "dou", "('k', 'ill')": "kill", "('p', 'at')": "pat", "('We', 'll,')": "Well,", "('y', 'ear')": "year", "('Rome', 'o')": "Romeo", "('c', 'es')": "ces", "('k', 'en')": "ken", "('ac', 'c')": "acc", "('he', 'ard')": "heard", "('p', 'ower')": "power", "('am', ',')": "am,", "('BR', 'UT')": "BRUT", "('BRUT', 'US:')": "BRUTUS:", "('te', 'm')": "tem", "('me', ';')": "me;", "('ra', 'w')": "raw", "('B', 'UC')": "BUC", "('BUC', 'KING')": "BUCKING", "('BUCKING', 'HAM:')": "BUCKINGHAM:", "('ly', '.')": "ly.", "('he', 'lp')": "help", "('tong', 'ue')": "tongue", "('th', 'r')": "thr", "('F', 'rom')": "From", "('on', 'ce')": "once"}}